00000000000000010000000200000003
00000004000000050000000600000007
00000008000000090000000A0000000B
0000000C0000000D0000000E0000000F
00000010000000110000001200000013
00000014000000150000001600000017
00000018000000190000001A0000001B
0000001C0000001D0000001E0000001F
00000020000000210000002200000023
00000024000000250000002600000027
00000028000000290000002A0000002B
0000002C0000002D0000002E0000002F
00000030000000310000003200000033
00000034000000350000003600000037
00000038000000390000003A0000003B
0000003C0000003D0000003E0000003F
00000040000000410000004200000043
00000044000000450000004600000047
00000048000000490000004A0000004B
0000004C0000004D0000004E0000004F
00000050000000510000005200000053
00000054000000550000005600000057
00000058000000590000005A0000005B
0000005C0000005D0000005E0000005F
00000060000000610000006200000063
00000064000000650000006600000067
00000068000000690000006A0000006B
0000006C0000006D0000006E0000006F
00000070000000710000007200000073
00000074000000750000007600000077
00000078000000790000007A0000007B
0000007C0000007D0000007E0000007F
00000080000000810000008200000083
00000084000000850000008600000087
00000088000000890000008A0000008B
0000008C0000008D0000008E0000008F
00000090000000910000009200000093
00000094000000950000009600000097
00000098000000990000009A0000009B
0000009C0000009D0000009E0000009F
000000A0000000A1000000A2000000A3
000000A4000000A5000000A6000000A7
000000A8000000A9000000AA000000AB
000000AC000000AD000000AE000000AF
000000B0000000B1000000B2000000B3